#ifndef BRIGHTNESS_MODEL_H
#define BRIGHTNESS_MODEL_H

const unsigned char brightness_model[] = {

    0x1C, 0x00, 0x00, 0x00, 0x54, 0x46, 0x4C, 0x33, 0x14, 0x00, 0x20, 0x00, 
    0x1C, 0x00, 0x18, 0x00, 0x14, 0x00, 0x10, 0x00, 0x0C, 0x00, 0x00, 0x00, 
    0x08, 0x00, 0x04, 0x00, 0x14, 0x00, 0x00, 0x00, 0x1C, 0x00, 0x00, 0x00, 
    0x98, 0x00, 0x00, 0x00, 0xF0, 0x00, 0x00, 0x00, 0x14, 0x0C, 0x00, 0x00, 
    0x24, 0x0C, 0x00, 0x00, 0x0C, 0x11, 0x00, 0x00, 0x03, 0x00, 0x00, 0x00, 
    0x01, 0x00, 0x00, 0x00, 0x10, 0x00, 0x00, 0x00, 0x00, 0x00, 0x0A, 0x00, 
    0x10, 0x00, 0x0C, 0x00, 0x08, 0x00, 0x04, 0x00, 0x0A, 0x00, 0x00, 0x00, 
    0x0C, 0x00, 0x00, 0x00, 0x1C, 0x00, 0x00, 0x00, 0x3C, 0x00, 0x00, 0x00, 
    0x0F, 0x00, 0x00, 0x00, 0x73, 0x65, 0x72, 0x76, 0x69, 0x6E, 0x67, 0x5F, 
    0x64, 0x65, 0x66, 0x61, 0x75, 0x6C, 0x74, 0x00, 0x01, 0x00, 0x00, 0x00, 
    0x04, 0x00, 0x00, 0x00, 0x90, 0xFF, 0xFF, 0xFF, 0x09, 0x00, 0x00, 0x00, 
    0x04, 0x00, 0x00, 0x00, 0x08, 0x00, 0x00, 0x00, 0x6F, 0x75, 0x74, 0x70, 
    0x75, 0x74, 0x5F, 0x30, 0x00, 0x00, 0x00, 0x00, 0x01, 0x00, 0x00, 0x00, 
    0x04, 0x00, 0x00, 0x00, 0xBA, 0xF4, 0xFF, 0xFF, 0x04, 0x00, 0x00, 0x00, 
    0x0C, 0x00, 0x00, 0x00, 0x6B, 0x65, 0x72, 0x61, 0x73, 0x5F, 0x74, 0x65, 
    0x6E, 0x73, 0x6F, 0x72, 0x00, 0x00, 0x00, 0x00, 0x02, 0x00, 0x00, 0x00, 
    0x34, 0x00, 0x00, 0x00, 0x04, 0x00, 0x00, 0x00, 0xDC, 0xFF, 0xFF, 0xFF, 
    0x0C, 0x00, 0x00, 0x00, 0x04, 0x00, 0x00, 0x00, 0x13, 0x00, 0x00, 0x00, 
    0x43, 0x4F, 0x4E, 0x56, 0x45, 0x52, 0x53, 0x49, 0x4F, 0x4E, 0x5F, 0x4D, 
    0x45, 0x54, 0x41, 0x44, 0x41, 0x54, 0x41, 0x00, 0x08, 0x00, 0x0C, 0x00, 
    0x08, 0x00, 0x04, 0x00, 0x08, 0x00, 0x00, 0x00, 0x0B, 0x00, 0x00, 0x00, 
    0x04, 0x00, 0x00, 0x00, 0x13, 0x00, 0x00, 0x00, 0x6D, 0x69, 0x6E, 0x5F, 
    0x72, 0x75, 0x6E, 0x74, 0x69, 0x6D, 0x65, 0x5F, 0x76, 0x65, 0x72, 0x73, 
    0x69, 0x6F, 0x6E, 0x00, 0x0D, 0x00, 0x00, 0x00, 0x20, 0x0B, 0x00, 0x00, 
    0x18, 0x0B, 0x00, 0x00, 0xC8, 0x0A, 0x00, 0x00, 0xB0, 0x02, 0x00, 0x00, 
    0x9C, 0x02, 0x00, 0x00, 0x4C, 0x02, 0x00, 0x00, 0xBC, 0x01, 0x00, 0x00, 
    0xAC, 0x00, 0x00, 0x00, 0xA4, 0x00, 0x00, 0x00, 0x9C, 0x00, 0x00, 0x00, 
    0x94, 0x00, 0x00, 0x00, 0x74, 0x00, 0x00, 0x00, 0x04, 0x00, 0x00, 0x00, 
    0x6A, 0xF5, 0xFF, 0xFF, 0x04, 0x00, 0x00, 0x00, 0x60, 0x00, 0x00, 0x00, 
    0x10, 0x00, 0x00, 0x00, 0x00, 0x00, 0x00, 0x00, 0x08, 0x00, 0x0E, 0x00, 
    0x08, 0x00, 0x04, 0x00, 0x08, 0x00, 0x00, 0x00, 0x10, 0x00, 0x00, 0x00, 
    0x24, 0x00, 0x00, 0x00, 0x00, 0x00, 0x06, 0x00, 0x08, 0x00, 0x04, 0x00, 
    0x06, 0x00, 0x00, 0x00, 0x04, 0x00, 0x00, 0x00, 0x00, 0x00, 0x00, 0x00, 
    0x0C, 0x00, 0x18, 0x00, 0x14, 0x00, 0x10, 0x00, 0x0C, 0x00, 0x04, 0x00, 
    0x0C, 0x00, 0x00, 0x00, 0x45, 0x7F, 0x51, 0x32, 0xB4, 0x2F, 0xDB, 0x92, 
    0x02, 0x00, 0x00, 0x00, 0x02, 0x00, 0x00, 0x00, 0x04, 0x00, 0x00, 0x00, 
    0x06, 0x00, 0x00, 0x00, 0x32, 0x2E, 0x31, 0x39, 0x2E, 0x30, 0x00, 0x00, 
    0xD6, 0xF5, 0xFF, 0xFF, 0x04, 0x00, 0x00, 0x00, 0x10, 0x00, 0x00, 0x00, 
    0x31, 0x2E, 0x35, 0x2E, 0x30, 0x00, 0x00, 0x00, 0x00, 0x00, 0x00, 0x00, 
    0x00, 0x00, 0x00, 0x00, 0xD0, 0xF0, 0xFF, 0xFF, 0xD4, 0xF0, 0xFF, 0xFF, 
    0xD8, 0xF0, 0xFF, 0xFF, 0xFE, 0xF5, 0xFF, 0xFF, 0x04, 0x00, 0x00, 0x00, 
    0x00, 0x01, 0x00, 0x00, 0x69, 0x1F, 0xDA, 0x3E, 0xC6, 0xC3, 0xB4, 0xBE, 
    0xB7, 0x66, 0x7B, 0xBD, 0xB9, 0xE2, 0xFF, 0xBD, 0x89, 0xF7, 0xE2, 0x3E, 
    0x03, 0x69, 0x90, 0x3E, 0x6E, 0xA5, 0x06, 0x3F, 0x96, 0x08, 0x02, 0xBD, 
    0x19, 0x66, 0x32, 0x3F, 0x03, 0x1C, 0x0D, 0xBD, 0x5F, 0x1B, 0x56, 0xBC, 
    0xE5, 0xD5, 0xF0, 0xBE, 0xB7, 0xC9, 0x34, 0x3F, 0x98, 0x50, 0xE1, 0xBE, 
    0xF3, 0x1C, 0xE6, 0x3E, 0x35, 0x73, 0x46, 0xBE, 0x15, 0x2E, 0x12, 0xBD, 
    0x07, 0xCA, 0x83, 0xBB, 0xD9, 0x74, 0x26, 0x3F, 0x6D, 0xE6, 0x9B, 0xBE, 
    0x92, 0x06, 0x0B, 0x3F, 0x9F, 0x05, 0xD8, 0xBE, 0x80, 0xAD, 0x3B, 0x3D, 
    0x2A, 0x5E, 0x8F, 0xBE, 0xDA, 0x06, 0x9A, 0xBE, 0x18, 0x4B, 0xE8, 0x3C, 
    0xF8, 0x77, 0x95, 0xBE, 0xE0, 0xFD, 0xF5, 0x3D, 0xB5, 0xD5, 0xF1, 0x3D, 
    0x6E, 0x82, 0x28, 0xBF, 0x2B, 0x66, 0xB7, 0x3E, 0xC5, 0x50, 0x0A, 0xBE, 
    0xCA, 0x0E, 0x28, 0x3E, 0x81, 0xB6, 0xD2, 0x3E, 0x70, 0xE5, 0xFF, 0xBC, 
    0x9C, 0xAB, 0x1A, 0x3D, 0x61, 0xA3, 0x9C, 0xBE, 0x93, 0xB1, 0x7C, 0xBE, 
    0x8C, 0xE2, 0xA4, 0x3E, 0xCF, 0xAF, 0x2F, 0xBE, 0x14, 0x7D, 0x61, 0xBD, 
    0x81, 0xD4, 0xF6, 0xBD, 0xF6, 0x32, 0x49, 0xBF, 0x32, 0x30, 0xC1, 0x3E, 
    0x1A, 0xA8, 0x1B, 0xBE, 0x8A, 0xC8, 0x9E, 0x3E, 0xF7, 0x98, 0x29, 0x3F, 
    0x41, 0x30, 0xE8, 0xBE, 0xFE, 0x25, 0x0A, 0x3F, 0xAA, 0x6B, 0x87, 0x3C, 
    0xCA, 0x07, 0xDF, 0xBE, 0x01, 0x9D, 0x0D, 0x3C, 0x92, 0x1E, 0xF6, 0x3E, 
    0x83, 0xF0, 0x54, 0x3E, 0x71, 0x1B, 0x72, 0xBD, 0xC6, 0xB2, 0xF9, 0xBD, 
    0xC6, 0xF2, 0xF8, 0xBE, 0x56, 0xDC, 0x3A, 0x3E, 0xD7, 0xD0, 0xCD, 0x3E, 
    0x71, 0x5C, 0x38, 0x3E, 0xDD, 0x86, 0xAA, 0x3E, 0x16, 0x7B, 0xD1, 0xBE, 
    0x30, 0x21, 0x54, 0x3E, 0x08, 0xD1, 0x1B, 0xBF, 0x0A, 0xF7, 0xFF, 0xFF, 
    0x04, 0x00, 0x00, 0x00, 0x80, 0x00, 0x00, 0x00, 0x2B, 0x67, 0xB7, 0x3E, 
    0xAA, 0xBC, 0xD9, 0x3E, 0x11, 0xC5, 0x23, 0xBC, 0x11, 0x9B, 0x97, 0x3E, 
    0x32, 0x2E, 0x9C, 0x3E, 0x84, 0xC8, 0x87, 0x3E, 0xDE, 0xEF, 0xAC, 0x3E, 
    0x3C, 0xFF, 0xA8, 0x3E, 0xC9, 0xCE, 0x10, 0xBD, 0xF2, 0xDD, 0x94, 0x3E, 
    0xB9, 0xA8, 0x98, 0x3E, 0xDF, 0x1F, 0xE5, 0x3D, 0xBB, 0xA6, 0x04, 0x3E, 
    0xA3, 0xF2, 0xE5, 0xBD, 0xED, 0x2E, 0x8F, 0x3E, 0x97, 0xE5, 0x15, 0x3E, 
    0x46, 0x24, 0xCA, 0x3E, 0x08, 0x48, 0x5A, 0x3E, 0x83, 0xF5, 0x6D, 0x3E, 
    0xFF, 0x9A, 0x9D, 0x3E, 0x75, 0x0A, 0xC8, 0x3E, 0x70, 0x65, 0xA3, 0xBE, 
    0x6A, 0x68, 0xD8, 0xBD, 0x8F, 0x40, 0xA7, 0x3E, 0x88, 0x2F, 0x95, 0x3E, 
    0x14, 0x0F, 0xFC, 0x3D, 0x74, 0xEE, 0xBA, 0x3E, 0x14, 0xD1, 0xD2, 0x3E, 
    0xF4, 0xA9, 0x48, 0xBE, 0xB8, 0xB1, 0xA0, 0x3E, 0xAA, 0x40, 0xBF, 0x3E, 
    0xBE, 0xA2, 0xA4, 0x3E, 0x96, 0xF7, 0xFF, 0xFF, 0x04, 0x00, 0x00, 0x00, 
    0x40, 0x00, 0x00, 0x00, 0x24, 0x02, 0x60, 0x3E, 0x30, 0x3C, 0x9B, 0xBC, 
    0x4D, 0xB7, 0x66, 0x3E, 0x76, 0x12, 0x8A, 0x3E, 0x6C, 0x4F, 0xF1, 0x3D, 
    0x2C, 0x36, 0xEC, 0x3D, 0x27, 0x9B, 0x6B, 0x3E, 0xE4, 0x43, 0xB0, 0x3B, 
    0x23, 0x1B, 0x84, 0x3E, 0xBB, 0xAC, 0x92, 0x3E, 0x00, 0x00, 0x00, 0x00, 
    0xD0, 0x80, 0x21, 0x3B, 0xB3, 0x1B, 0x9E, 0x3E, 0x9B, 0x9D, 0x71, 0x3E, 
    0x00, 0x00, 0x00, 0x00, 0xA8, 0x89, 0x6C, 0x3E, 0xE2, 0xF7, 0xFF, 0xFF, 
    0x04, 0x00, 0x00, 0x00, 0x04, 0x00, 0x00, 0x00, 0x02, 0xE3, 0x49, 0xBE, 
    0xF2, 0xF7, 0xFF, 0xFF, 0x04, 0x00, 0x00, 0x00, 0x00, 0x08, 0x00, 0x00, 
    0x90, 0x5F, 0x5A, 0x3E, 0x42, 0xF8, 0x41, 0xBE, 0xB8, 0x8D, 0x95, 0x3E, 
    0xE2, 0xAF, 0x43, 0x3C, 0x5F, 0xC1, 0x1A, 0x3F, 0x91, 0x60, 0x9C, 0xBE, 
    0x06, 0xE3, 0xF4, 0xBC, 0x01, 0x37, 0xC7, 0x3D, 0xD4, 0xF4, 0x88, 0xBE, 
    0x93, 0x82, 0x33, 0xBD, 0x56, 0xE2, 0x94, 0x3E, 0x61, 0xF3, 0xFB, 0xBE, 
    0xAD, 0x73, 0x96, 0xBD, 0x75, 0x6A, 0x61, 0xBE, 0xFF, 0x97, 0x84, 0x3B, 
    0x00, 0x7F, 0xD0, 0x3E, 0x85, 0xBD, 0x01, 0x3F, 0x71, 0x8D, 0x73, 0x3D, 
    0xA6, 0xD6, 0x17, 0x3E, 0x8F, 0x75, 0x7A, 0x3E, 0x3D, 0x0A, 0xCA, 0xBE, 
    0x15, 0xEE, 0xB0, 0xBE, 0x79, 0x14, 0x03, 0x3E, 0x7B, 0xA9, 0x56, 0x3E, 
    0x73, 0x2F, 0xC2, 0x3E, 0xDE, 0xD1, 0xD5, 0x3E, 0x83, 0xB5, 0x2C, 0x3F, 
    0xFC, 0x9D, 0x36, 0x3E, 0x0E, 0x49, 0x6D, 0xBD, 0x1E, 0xB8, 0xCA, 0x3C, 
    0xAE, 0xB1, 0xA2, 0x3E, 0xB9, 0x70, 0xF1, 0x3E, 0xE5, 0x50, 0xA2, 0xBE, 
    0xD7, 0x1C, 0x6D, 0xBE, 0x2F, 0xDE, 0x7E, 0x3E, 0x75, 0x64, 0x8A, 0x3D, 
    0x3E, 0x1C, 0xA7, 0xBB, 0x50, 0x61, 0x11, 0xBD, 0x0B, 0xBA, 0xA5, 0xBE, 
    0x4C, 0x22, 0xC8, 0xBD, 0xC1, 0xEA, 0x14, 0xBE, 0x34, 0xEC, 0x95, 0xBD, 
    0xCF, 0x56, 0x2F, 0x3D, 0x77, 0xC0, 0x8D, 0xBE, 0x45, 0x16, 0x18, 0xBE, 
    0xE4, 0x5C, 0x36, 0xBE, 0x53, 0xB0, 0x84, 0x3E, 0x74, 0x70, 0xC6, 0x3D, 
    0x66, 0xAA, 0x05, 0xBE, 0x4D, 0xE3, 0x3A, 0x3E, 0xF3, 0xF5, 0x40, 0xBE, 
    0x32, 0x5F, 0xB1, 0xBE, 0x5E, 0x3F, 0x21, 0xBE, 0xA7, 0xFB, 0xA3, 0xBE, 
    0x34, 0x2F, 0x82, 0xBE, 0x7A, 0xBD, 0x2D, 0x3E, 0x5F, 0x2E, 0x07, 0x3E, 
    0x6E, 0x91, 0xA0, 0xBE, 0xAE, 0x92, 0x41, 0xBD, 0x46, 0xBC, 0x34, 0xBE, 
    0x3E, 0x19, 0x9C, 0xBE, 0xC9, 0xA8, 0xA3, 0xBE, 0x4E, 0x3D, 0xA9, 0xBE, 
    0x32, 0x14, 0x45, 0x3E, 0xD4, 0x2B, 0xAB, 0x3D, 0x65, 0xC3, 0x16, 0xBF, 
    0xF0, 0x8F, 0x80, 0x3D, 0x11, 0x8F, 0x18, 0x3E, 0xB7, 0x44, 0xE7, 0x3E, 
    0x5E, 0xAE, 0x48, 0xBE, 0x88, 0xB7, 0x51, 0x3E, 0x44, 0x02, 0x16, 0x3F, 
    0xF9, 0xB4, 0x43, 0x3D, 0xE8, 0x9E, 0x81, 0x3E, 0x84, 0x10, 0xB1, 0x3E, 
    0x2D, 0x32, 0xC2, 0xBE, 0x99, 0xDF, 0x15, 0x3D, 0x5F, 0x11, 0x6A, 0xBD, 
    0x30, 0xA9, 0x19, 0x3F, 0x81, 0xEF, 0x8E, 0x3E, 0x26, 0x54, 0xC9, 0x3E, 
    0x89, 0x86, 0x09, 0xBE, 0x24, 0xED, 0xA5, 0xBE, 0xC3, 0x83, 0x00, 0x3F, 
    0xBA, 0xF2, 0x06, 0xBD, 0x1E, 0x8A, 0xDA, 0xBE, 0x2F, 0x12, 0x58, 0xBE, 
    0x92, 0x0D, 0x93, 0x3E, 0x98, 0xC6, 0xB5, 0x3E, 0xAE, 0x4D, 0x5C, 0xBE, 
    0x3A, 0x2B, 0x39, 0x3E, 0x74, 0x95, 0x19, 0xBF, 0x43, 0xCC, 0xF5, 0xBE, 
    0x01, 0x27, 0x11, 0x3F, 0x49, 0x50, 0x23, 0x3F, 0x67, 0xF2, 0xD2, 0x3E, 
    0x68, 0xC0, 0xB0, 0x3C, 0x10, 0x0D, 0xB0, 0xBE, 0x75, 0xED, 0x39, 0x3E, 
    0xA1, 0xE0, 0x1B, 0x3F, 0xC6, 0xDC, 0xCE, 0xBC, 0xE5, 0xF2, 0x09, 0xBF, 
    0xF5, 0xAB, 0xB4, 0x3E, 0xA1, 0x55, 0xF3, 0x3E, 0xB7, 0x9C, 0x00, 0xBE, 
    0x63, 0x66, 0xE0, 0x3C, 0xCD, 0x22, 0xB1, 0x3E, 0x29, 0x78, 0x0E, 0xBF, 
    0x12, 0x1A, 0x0A, 0xBE, 0xC3, 0xE1, 0x13, 0xBE, 0xAD, 0xDA, 0x24, 0x3F, 
    0x0D, 0xC3, 0x42, 0x3E, 0xC5, 0xF1, 0x0A, 0x3F, 0x6D, 0xB4, 0x7D, 0x3D, 
    0xF2, 0x7C, 0xD9, 0x3D, 0xD4, 0x25, 0xC3, 0x3E, 0xFF, 0x70, 0x35, 0x3C, 
    0xD4, 0xBB, 0x67, 0xBD, 0x26, 0x3B, 0xBC, 0xBE, 0x28, 0xCD, 0x04, 0x3F, 
    0xC5, 0xD3, 0x2E, 0x3F, 0xB7, 0x5B, 0x8D, 0xBE, 0x84, 0x01, 0x36, 0x3E, 
    0x59, 0x4E, 0x5D, 0xBE, 0x64, 0xD5, 0x12, 0xBF, 0xCE, 0x77, 0x2B, 0x3F, 
    0xA9, 0xB5, 0xFE, 0x3E, 0x16, 0x09, 0x2B, 0x3F, 0x52, 0x82, 0xA7, 0x3E, 
    0x54, 0xAF, 0x56, 0x3D, 0xB0, 0x5B, 0x26, 0xBE, 0x43, 0x1F, 0x5F, 0xBE, 
    0xEF, 0xAA, 0x92, 0xBE, 0x2D, 0xED, 0xA5, 0x3E, 0xE1, 0x18, 0x9B, 0xBD, 
    0xF1, 0x52, 0xD6, 0x3D, 0x5E, 0xEC, 0x9E, 0x3E, 0xF9, 0x66, 0x63, 0xBE, 
    0x0B, 0x8E, 0x7F, 0x3E, 0x96, 0x85, 0x97, 0x3E, 0xA0, 0x5D, 0x54, 0xBD, 
    0xC1, 0xC4, 0x76, 0x3E, 0x73, 0x6F, 0x7A, 0xBD, 0xE3, 0xB6, 0x66, 0xBE, 
    0x65, 0xA2, 0xDA, 0x3E, 0xDC, 0x2B, 0xC4, 0x3E, 0xB9, 0x92, 0x8A, 0xBD, 
    0x9B, 0xBB, 0x72, 0x3D, 0xBB, 0x47, 0x97, 0x3E, 0xFB, 0x80, 0xE2, 0x3E, 
    0x60, 0xD2, 0x0D, 0x3D, 0x71, 0x02, 0x23, 0x3E, 0xA1, 0x72, 0xD4, 0x3D, 
    0x3A, 0xDB, 0x9A, 0xBD, 0x81, 0x36, 0x31, 0xBE, 0x09, 0x3E, 0xAC, 0xBD, 
    0x4A, 0x0C, 0x05, 0x3F, 0x31, 0x66, 0x89, 0x3D, 0xD1, 0x1C, 0xC8, 0x3D, 
    0xB7, 0x96, 0xD9, 0x3E, 0x95, 0x71, 0x36, 0xBD, 0x10, 0xF5, 0xEF, 0x3E, 
    0x20, 0x3D, 0x99, 0xBE, 0x66, 0x06, 0xFB, 0xBE, 0xCA, 0x48, 0x47, 0x3E, 
    0x85, 0x40, 0x44, 0x3E, 0x5E, 0x5B, 0x6F, 0xBE, 0x0A, 0xAF, 0x7E, 0xBC, 
    0x6D, 0x52, 0xE2, 0xBD, 0xAD, 0xF4, 0xAE, 0x3D, 0xAD, 0x46, 0x65, 0x3E, 
    0x96, 0xB5, 0xA3, 0x3D, 0xD0, 0xCE, 0x65, 0x3E, 0x28, 0x31, 0xBB, 0x3E, 
    0xDF, 0x62, 0x94, 0x3E, 0x8F, 0x31, 0x32, 0xBC, 0x92, 0x11, 0x45, 0x3E, 
    0x29, 0xDA, 0x02, 0x3F, 0xE8, 0x54, 0x72, 0xBE, 0x92, 0x23, 0xE2, 0x3E, 
    0x4A, 0xBE, 0xA0, 0x3E, 0x82, 0xB8, 0x5F, 0x3E, 0x9F, 0x36, 0xB3, 0x3E, 
    0x18, 0xE8, 0x54, 0xBE, 0xAB, 0x6F, 0x22, 0xBE, 0x23, 0x1D, 0x63, 0x3E, 
    0x36, 0x6B, 0x1E, 0xBC, 0x46, 0xF4, 0x1D, 0x3E, 0x93, 0xD0, 0x86, 0x3E, 
    0x0E, 0x07, 0x34, 0x3E, 0x39, 0x2A, 0xDA, 0x3E, 0x71, 0x57, 0xA9, 0x3E, 
    0xBB, 0xD2, 0x0D, 0x3F, 0x92, 0xED, 0x96, 0x3D, 0xFF, 0x36, 0x9E, 0x3A, 
    0x22, 0x93, 0xF9, 0x3E, 0xF3, 0x4F, 0xF5, 0x3E, 0x61, 0x42, 0xF9, 0xBE, 
    0xD3, 0x3F, 0xF1, 0x3E, 0x24, 0x13, 0xBE, 0x3E, 0xE4, 0xF6, 0xFD, 0xBD, 
    0x62, 0x6A, 0x1D, 0x3F, 0x4D, 0xAF, 0x6B, 0x3E, 0xAE, 0xEF, 0xCE, 0x3D, 
    0x9B, 0x9B, 0x09, 0xBE, 0xEF, 0x0A, 0x26, 0xBE, 0x99, 0xE2, 0x81, 0x3E, 
    0x4D, 0xCC, 0xA1, 0xBD, 0xC4, 0x74, 0x03, 0x3F, 0x00, 0x57, 0x6F, 0xBE, 
    0x6F, 0x83, 0xC4, 0xBE, 0xD7, 0xE3, 0xFA, 0x3E, 0x74, 0xB6, 0xA6, 0x3D, 
    0x25, 0xE1, 0xDC, 0xBE, 0x11, 0x32, 0x63, 0xBE, 0x6B, 0x25, 0xFC, 0x3E, 
    0x34, 0x90, 0x09, 0x3F, 0x11, 0x32, 0xB6, 0xBE, 0x20, 0xBE, 0x0F, 0x3F, 
    0xEA, 0xC8, 0xAC, 0x3D, 0x25, 0x2A, 0x24, 0xBE, 0xD2, 0x1F, 0x08, 0x3F, 
    0x49, 0x67, 0xA8, 0x3E, 0x99, 0xF2, 0x71, 0x3E, 0x34, 0x12, 0x9E, 0x3D, 
    0x02, 0x80, 0xB0, 0x3E, 0x13, 0x9D, 0xDF, 0xBD, 0xCA, 0x1A, 0x80, 0x3C, 
    0xA7, 0x53, 0xA1, 0xBE, 0xB9, 0x1A, 0xA4, 0x3B, 0x68, 0xD4, 0xBB, 0xBD, 
    0x4E, 0xD2, 0x4A, 0x3E, 0xF6, 0x1E, 0x71, 0x3C, 0x43, 0x09, 0xEB, 0xBD, 
    0xBC, 0x59, 0x61, 0x3E, 0xEF, 0x89, 0xC4, 0x3E, 0xC7, 0x66, 0x29, 0xBE, 
    0x7D, 0x03, 0x36, 0xBD, 0x60, 0xE9, 0x28, 0x3E, 0x15, 0x36, 0x94, 0x3E, 
    0x71, 0x70, 0x26, 0x3E, 0xB0, 0x52, 0xD7, 0x3D, 0x2A, 0x01, 0x38, 0xBE, 
    0x6A, 0x3D, 0x86, 0x3E, 0x89, 0x94, 0xCB, 0x3E, 0x4A, 0x2E, 0xB8, 0x3E, 
    0xF6, 0x1E, 0xB1, 0x3E, 0x24, 0x3D, 0xAF, 0x3E, 0xE0, 0xD3, 0x4A, 0xBE, 
    0xAC, 0x6E, 0xBC, 0x3E, 0x24, 0x49, 0x6E, 0xBE, 0x00, 0x06, 0xC5, 0x3D, 
    0x38, 0x1B, 0x1B, 0x3E, 0x11, 0x59, 0x1D, 0xBE, 0x03, 0xB6, 0x6C, 0x3D, 
    0x9A, 0x07, 0xA8, 0x3D, 0x94, 0xF1, 0x63, 0x3E, 0x5C, 0x9D, 0xE9, 0x3E, 
    0xEA, 0xBD, 0x96, 0xBE, 0xBB, 0x35, 0xC4, 0xBC, 0xC6, 0x75, 0x9C, 0xBE, 
    0x49, 0xF7, 0xBC, 0x3E, 0xD7, 0x46, 0xEA, 0xBD, 0xBA, 0x8F, 0xAA, 0x3E, 
    0x7C, 0xC3, 0x80, 0xBE, 0xB4, 0x06, 0xD6, 0x3E, 0x1C, 0xC1, 0x97, 0x3E, 
    0x05, 0x09, 0xE1, 0x3E, 0x5A, 0x0C, 0xA9, 0xBC, 0x15, 0x12, 0x04, 0xBE, 
    0x27, 0x5B, 0xCF, 0x3E, 0x55, 0x55, 0x0A, 0xBE, 0xA7, 0x04, 0x9B, 0x3E, 
    0xD4, 0x42, 0xA5, 0x3D, 0x81, 0x53, 0x86, 0x3E, 0xE4, 0x73, 0x01, 0xBE, 
    0x38, 0x11, 0x09, 0x3F, 0xA7, 0x00, 0x7F, 0x3E, 0x27, 0x56, 0x87, 0x3E, 
    0x49, 0xD1, 0xFB, 0xBD, 0x9C, 0xED, 0x81, 0xBE, 0x2C, 0x98, 0xEE, 0x3C, 
    0x35, 0x3E, 0x8E, 0xBE, 0x11, 0xD2, 0xB3, 0x3E, 0xBE, 0x94, 0x11, 0xBE, 
    0x8B, 0x3A, 0x86, 0xBE, 0x1E, 0xB4, 0xFE, 0x3E, 0x98, 0xC1, 0xF7, 0x3E, 
    0xCA, 0x36, 0x3A, 0x3E, 0xC2, 0xE4, 0x28, 0x3F, 0x07, 0x4A, 0x9F, 0xBC, 
    0x05, 0x58, 0xDB, 0xBE, 0xCF, 0xE9, 0xB8, 0xBE, 0x1C, 0xA6, 0x04, 0x3F, 
    0xC6, 0xEA, 0x11, 0xBE, 0xB2, 0xDD, 0xE3, 0xBC, 0x56, 0xBE, 0xFB, 0xBC, 
    0x98, 0x54, 0xCA, 0x3E, 0xBF, 0xED, 0xDC, 0x3C, 0x5C, 0x55, 0x12, 0x3F, 
    0xAD, 0xA3, 0xB2, 0x3E, 0x83, 0x05, 0x03, 0x3F, 0xD0, 0x09, 0xDF, 0x3E, 
    0x6C, 0xFD, 0x2F, 0xBE, 0x39, 0x48, 0xCF, 0x3D, 0xC8, 0xB3, 0xD4, 0x3E, 
    0x99, 0xD0, 0xC7, 0x3E, 0xA3, 0x54, 0xDC, 0x3E, 0x33, 0xCE, 0xBC, 0x3E, 
    0x14, 0x43, 0xF3, 0x3E, 0x7D, 0x6D, 0xED, 0x3D, 0x63, 0x72, 0x66, 0x3E, 
    0x4C, 0xCA, 0xB7, 0xBE, 0x64, 0x84, 0xC9, 0x3E, 0x29, 0x7A, 0x4B, 0x3E, 
    0x86, 0x56, 0x8A, 0x3E, 0x02, 0x78, 0x1D, 0x3F, 0x09, 0x92, 0x87, 0xBE, 
    0xE6, 0x08, 0x8C, 0x3E, 0x9F, 0xB5, 0x00, 0x3F, 0x84, 0x96, 0xA2, 0xBE, 
    0xB0, 0xB6, 0x04, 0x3E, 0x42, 0xB1, 0x88, 0xBE, 0x46, 0x73, 0x48, 0x3E, 
    0x66, 0xE5, 0xE1, 0xBD, 0xD1, 0x65, 0x47, 0xBE, 0xE7, 0x8E, 0x9B, 0x3E, 
    0x90, 0xE6, 0x93, 0xBE, 0x61, 0x08, 0xAE, 0xBE, 0x78, 0xDE, 0x53, 0xBE, 
    0xFD, 0x19, 0x8E, 0x3E, 0x21, 0xFA, 0x22, 0xBE, 0xCE, 0xB3, 0xAA, 0xBE, 
    0xAA, 0x6D, 0x20, 0x3E, 0x2F, 0xFD, 0x10, 0xBE, 0x92, 0xAA, 0x0A, 0xBE, 
    0xFE, 0x6B, 0x1E, 0x3E, 0xBC, 0x0E, 0xAD, 0xBE, 0xB3, 0x1A, 0x8E, 0xBE, 
    0x03, 0x57, 0x36, 0xBE, 0xB6, 0x6F, 0x89, 0xBE, 0xBC, 0x41, 0xDB, 0xBD, 
    0xF8, 0xAC, 0x39, 0x3D, 0x2C, 0x22, 0xDD, 0x3D, 0x40, 0xAF, 0x2C, 0xBD, 
    0x80, 0xA0, 0x88, 0x3D, 0x00, 0xCF, 0xBD, 0x3D, 0x77, 0x20, 0xAB, 0x3E, 
    0x0A, 0xEA, 0x8B, 0xBE, 0xA1, 0x40, 0x81, 0xBE, 0xCD, 0xC8, 0x99, 0xBE, 
    0xFE, 0x94, 0x7A, 0xBE, 0x70, 0x79, 0xAF, 0xBE, 0xD0, 0x68, 0xE6, 0x3E, 
    0xB1, 0xA2, 0x60, 0x3E, 0x62, 0xA6, 0x5D, 0x3E, 0x9B, 0xFF, 0xA1, 0xBC, 
    0xFD, 0x23, 0x53, 0xBD, 0xE6, 0x2B, 0x43, 0xBC, 0xB6, 0xDB, 0xC7, 0x3D, 
    0x86, 0xB7, 0xBD, 0x3E, 0x08, 0xB8, 0xBC, 0xBE, 0x5B, 0xEE, 0xD3, 0x3B, 
    0xB1, 0xF7, 0x3F, 0x3D, 0x76, 0x13, 0xA8, 0x3E, 0x61, 0xE7, 0x96, 0x3B, 
    0xEA, 0x7D, 0x8B, 0x3E, 0xB5, 0x7D, 0x80, 0x3E, 0x5D, 0x45, 0xFE, 0xBC, 
    0xAA, 0x40, 0xF1, 0x3D, 0x36, 0x83, 0x70, 0x3E, 0x39, 0xA2, 0x2D, 0xBC, 
    0xED, 0x64, 0x93, 0x3E, 0xD6, 0xB4, 0x13, 0x3D, 0x51, 0xC0, 0x01, 0x3F, 
    0x99, 0xF9, 0x04, 0x3E, 0x9D, 0x80, 0x85, 0xBE, 0x42, 0x58, 0x88, 0x3D, 
    0xFE, 0x43, 0x26, 0x3E, 0x1C, 0x18, 0xCE, 0xBD, 0xA5, 0x64, 0x32, 0xBD, 
    0x74, 0xC2, 0x10, 0xBE, 0x86, 0x54, 0x3D, 0x3D, 0x52, 0xAD, 0xE0, 0x3E, 
    0x9F, 0xB9, 0x03, 0x3F, 0x06, 0x62, 0xB5, 0xBE, 0x50, 0x20, 0x19, 0x3F, 
    0x56, 0xCF, 0x0B, 0x3F, 0x47, 0x0E, 0xAD, 0x3E, 0x22, 0xBA, 0x83, 0xBD, 
    0x0A, 0xFF, 0xE8, 0x3E, 0xB8, 0x47, 0x7B, 0x3E, 0x0B, 0x46, 0xB7, 0x3D, 
    0x6B, 0xF2, 0xD9, 0x3E, 0x9F, 0x29, 0x0E, 0x3F, 0xED, 0x57, 0xA6, 0xBE, 
    0x66, 0x01, 0x29, 0x3E, 0x17, 0x30, 0x11, 0xBF, 0x50, 0x97, 0x3A, 0x3E, 
    0x47, 0x23, 0x69, 0x3E, 0xF5, 0x85, 0x2F, 0x3E, 0xB1, 0x8A, 0x4B, 0xBE, 
    0xFA, 0xC9, 0x13, 0xBF, 0x71, 0x8C, 0xAF, 0x3E, 0x67, 0x59, 0x5E, 0xBD, 
    0xAD, 0xDC, 0x4D, 0xBE, 0xD8, 0x61, 0x80, 0xBE, 0x5B, 0x00, 0x04, 0x3F, 
    0x76, 0x78, 0xD0, 0x3E, 0xBA, 0xB9, 0xAC, 0xBE, 0x75, 0x8F, 0xDB, 0x3E, 
    0xF6, 0xC8, 0x0F, 0xBF, 0xF4, 0x47, 0xFC, 0xBE, 0x26, 0xAD, 0x32, 0x3F, 
    0x2B, 0xDF, 0xCC, 0x3D, 0xC8, 0xD6, 0xE5, 0x3E, 0x83, 0xBD, 0x67, 0x3E, 
    0x7F, 0x5F, 0x99, 0xBE, 0x1F, 0xC6, 0xC9, 0x3E, 0xD0, 0x6F, 0x10, 0x3F, 
    0xD7, 0xE2, 0xEB, 0x3E, 0xA1, 0x37, 0x10, 0xBF, 0xFC, 0x64, 0x10, 0x3F, 
    0x50, 0x5E, 0xC8, 0x3D, 0x18, 0x7C, 0x93, 0x3E, 0xE0, 0x44, 0xD2, 0x3E, 
    0xA4, 0x54, 0xC4, 0x3E, 0x66, 0xB2, 0xDB, 0xBD, 0x69, 0xAF, 0xC1, 0xBE, 
    0x54, 0x79, 0x0C, 0x3D, 0x72, 0x1D, 0x64, 0x3E, 0xEA, 0x66, 0x28, 0x3D, 
    0xBB, 0x53, 0xF0, 0x3E, 0x41, 0x34, 0x93, 0xBE, 0xA4, 0x94, 0x53, 0xBD, 
    0x05, 0x22, 0x12, 0x3F, 0xE3, 0x09, 0xFB, 0xBE, 0xE2, 0xA9, 0x81, 0xBE, 
    0xB3, 0xC1, 0xB8, 0xBE, 0xB0, 0x46, 0x8F, 0x3E, 0x67, 0xCD, 0xE6, 0x3E, 
    0x2E, 0xF3, 0x96, 0xBE, 0xF8, 0x8B, 0x65, 0x3E, 0xE3, 0xB4, 0x58, 0xBE, 
    0x6D, 0x23, 0x52, 0xBE, 0x0A, 0x20, 0xD8, 0x3E, 0x91, 0x89, 0x86, 0x3E, 
    0x3F, 0x47, 0x2D, 0x3F, 0x0D, 0x4B, 0x98, 0x3E, 0x47, 0x47, 0x82, 0xBE, 
    0x6E, 0xBC, 0x89, 0xBE, 0xC8, 0xC1, 0x99, 0xBE, 0x28, 0xAE, 0x37, 0xBD, 
    0xA0, 0xE7, 0xF4, 0x3D, 0x80, 0xDC, 0x46, 0xBC, 0xAB, 0xF3, 0x28, 0xBE, 
    0xF6, 0x13, 0x33, 0x3E, 0xD2, 0xCE, 0x93, 0xBE, 0xA2, 0x07, 0xAF, 0xBE, 
    0xA2, 0x7E, 0x2E, 0x3E, 0x6E, 0xC5, 0x3F, 0xBE, 0xF1, 0x99, 0x9C, 0x3E, 
    0xFA, 0x5D, 0x96, 0xBE, 0xB0, 0xD9, 0xBF, 0xBC, 0x12, 0x03, 0x3F, 0x3E, 
    0x2D, 0x57, 0x45, 0xBE, 0x93, 0xEA, 0x2E, 0xBE, 0x90, 0x66, 0x51, 0xBD, 
    0x4B, 0x01, 0x80, 0xBE, 0x07, 0xF9, 0x47, 0xBE, 0x91, 0x5E, 0x11, 0xBE, 
    0x06, 0x4D, 0xDC, 0xBD, 0x34, 0xA6, 0xB4, 0x3D, 0xE4, 0x05, 0xD0, 0xBD, 
    0xF7, 0x2A, 0x40, 0xBE, 0xE8, 0x42, 0x98, 0xBE, 0xE0, 0xBD, 0x29, 0xBE, 
    0x67, 0x9A, 0xA0, 0x3E, 0x58, 0x03, 0x70, 0x3D, 0xAE, 0x1B, 0x55, 0x3E, 
    0x47, 0x32, 0xF4, 0x3E, 0xE2, 0xB0, 0xAB, 0xBE, 0x2C, 0x5B, 0xC4, 0x3E, 
    0xC7, 0x7D, 0x0A, 0x3F, 0x30, 0x7E, 0x98, 0x3E, 0xCA, 0x18, 0x87, 0x3D, 
    0x94, 0x99, 0x1D, 0xBD, 0x64, 0x66, 0x06, 0x3F, 0x25, 0x77, 0x07, 0x3E, 
    0xE4, 0x59, 0xFB, 0x3E, 0x77, 0xEE, 0xCC, 0x3C, 0x82, 0x71, 0x0C, 0xBF, 
    0xEA, 0x8E, 0x94, 0x3E, 0xBF, 0xD1, 0x09, 0xBF, 0x78, 0xD0, 0x19, 0x3F, 
    0x7B, 0xEB, 0xEB, 0x3E, 0x90, 0xCB, 0x0D, 0x3F, 0x41, 0x0E, 0x9C, 0xBE, 
    0x82, 0x67, 0x1A, 0xBE, 0xEA, 0x19, 0xEC, 0x3E, 0x2E, 0x58, 0xFE, 0x3D, 
    0x3D, 0x6D, 0xFB, 0xBD, 0x50, 0x76, 0x47, 0xBE, 0x62, 0x25, 0x86, 0x3E, 
    0x63, 0x4C, 0xC1, 0x3E, 0xD2, 0x43, 0xCB, 0x3C, 0xFD, 0x0C, 0x24, 0x3F, 
    0x91, 0x56, 0x17, 0xBF, 0xA8, 0xF1, 0x6F, 0xBE, 0xEE, 0x54, 0xAA, 0x3E, 
    0x7D, 0x16, 0x82, 0xBC, 0xE8, 0x21, 0xD0, 0x3E, 0x00, 0x00, 0x06, 0x00, 
    0x08, 0x00, 0x04, 0x00, 0x06, 0x00, 0x00, 0x00, 0x04, 0x00, 0x00, 0x00, 
    0x40, 0x00, 0x00, 0x00, 0x80, 0x9E, 0x0D, 0xBF, 0xB8, 0x5C, 0xD6, 0x3D, 
    0x5D, 0xD1, 0x3F, 0xBF, 0xDA, 0x25, 0xED, 0xBE, 0x73, 0xE0, 0x0C, 0x3F, 
    0xA5, 0xE9, 0x41, 0x3F, 0x41, 0x64, 0x12, 0xBF, 0x0C, 0x2E, 0x5B, 0x3E, 
    0x0B, 0xD1, 0x7B, 0x3F, 0xDD, 0xBF, 0x9F, 0x3E, 0x94, 0x06, 0xDF, 0xBD, 
    0xB8, 0xC2, 0x5F, 0x3E, 0xA7, 0x3C, 0xAA, 0xBE, 0xA1, 0x60, 0x05, 0xBF, 
    0x00, 0xF9, 0x49, 0x3B, 0x62, 0xC2, 0x22, 0xBF, 0x30, 0xFB, 0xFF, 0xFF, 
    0x34, 0xFB, 0xFF, 0xFF, 0x0F, 0x00, 0x00, 0x00, 0x4D, 0x4C, 0x49, 0x52, 
    0x20, 0x43, 0x6F, 0x6E, 0x76, 0x65, 0x72, 0x74, 0x65, 0x64, 0x2E, 0x00, 
    0x01, 0x00, 0x00, 0x00, 0x14, 0x00, 0x00, 0x00, 0x00, 0x00, 0x0E, 0x00, 
    0x18, 0x00, 0x14, 0x00, 0x10, 0x00, 0x0C, 0x00, 0x08, 0x00, 0x04, 0x00, 
    0x0E, 0x00, 0x00, 0x00, 0x14, 0x00, 0x00, 0x00, 0x1C, 0x00, 0x00, 0x00, 
    0xD8, 0x00, 0x00, 0x00, 0xDC, 0x00, 0x00, 0x00, 0xE0, 0x00, 0x00, 0x00, 
    0x04, 0x00, 0x00, 0x00, 0x6D, 0x61, 0x69, 0x6E, 0x00, 0x00, 0x00, 0x00, 
    0x03, 0x00, 0x00, 0x00, 0x80, 0x00, 0x00, 0x00, 0x38, 0x00, 0x00, 0x00, 
    0x04, 0x00, 0x00, 0x00, 0x9A, 0xFF, 0xFF, 0xFF, 0x10, 0x00, 0x00, 0x00, 
    0x00, 0x00, 0x00, 0x08, 0x0C, 0x00, 0x00, 0x00, 0x10, 0x00, 0x00, 0x00, 
    0xAC, 0xFB, 0xFF, 0xFF, 0x01, 0x00, 0x00, 0x00, 0x09, 0x00, 0x00, 0x00, 
    0x03, 0x00, 0x00, 0x00, 0x08, 0x00, 0x00, 0x00, 0x01, 0x00, 0x00, 0x00, 
    0x03, 0x00, 0x00, 0x00, 0xCA, 0xFF, 0xFF, 0xFF, 0x10, 0x00, 0x00, 0x00, 
    0x00, 0x00, 0x00, 0x08, 0x10, 0x00, 0x00, 0x00, 0x14, 0x00, 0x00, 0x00, 
    0xBA, 0xFF, 0xFF, 0xFF, 0x00, 0x00, 0x00, 0x01, 0x01, 0x00, 0x00, 0x00, 
    0x08, 0x00, 0x00, 0x00, 0x03, 0x00, 0x00, 0x00, 0x07, 0x00, 0x00, 0x00, 
    0x02, 0x00, 0x00, 0x00, 0x04, 0x00, 0x00, 0x00, 0x00, 0x00, 0x0E, 0x00, 
    0x16, 0x00, 0x00, 0x00, 0x10, 0x00, 0x0C, 0x00, 0x0B, 0x00, 0x04, 0x00, 
    0x0E, 0x00, 0x00, 0x00, 0x18, 0x00, 0x00, 0x00, 0x00, 0x00, 0x00, 0x08, 
    0x18, 0x00, 0x00, 0x00, 0x1C, 0x00, 0x00, 0x00, 0x00, 0x00, 0x06, 0x00, 
    0x08, 0x00, 0x07, 0x00, 0x06, 0x00, 0x00, 0x00, 0x00, 0x00, 0x00, 0x01, 
    0x01, 0x00, 0x00, 0x00, 0x07, 0x00, 0x00, 0x00, 0x03, 0x00, 0x00, 0x00, 
    0x00, 0x00, 0x00, 0x00, 0x06, 0x00, 0x00, 0x00, 0x05, 0x00, 0x00, 0x00, 
    0x01, 0x00, 0x00, 0x00, 0x09, 0x00, 0x00, 0x00, 0x01, 0x00, 0x00, 0x00, 
    0x00, 0x00, 0x00, 0x00, 0x0A, 0x00, 0x00, 0x00, 0x7C, 0x03, 0x00, 0x00, 
    0x24, 0x03, 0x00, 0x00, 0xCC, 0x02, 0x00, 0x00, 0x90, 0x02, 0x00, 0x00, 
    0x34, 0x02, 0x00, 0x00, 0xDC, 0x01, 0x00, 0x00, 0x90, 0x01, 0x00, 0x00, 
    0xFC, 0x00, 0x00, 0x00, 0x60, 0x00, 0x00, 0x00, 0x04, 0x00, 0x00, 0x00, 
    0xC2, 0xFC, 0xFF, 0xFF, 0x00, 0x00, 0x00, 0x01, 0x14, 0x00, 0x00, 0x00, 
    0x1C, 0x00, 0x00, 0x00, 0x1C, 0x00, 0x00, 0x00, 0x0A, 0x00, 0x00, 0x00, 
    0x34, 0x00, 0x00, 0x00, 0x02, 0x00, 0x00, 0x00, 0xFF, 0xFF, 0xFF, 0xFF, 
    0x01, 0x00, 0x00, 0x00, 0xAC, 0xFC, 0xFF, 0xFF, 0x1B, 0x00, 0x00, 0x00, 
    0x53, 0x74, 0x61, 0x74, 0x65, 0x66, 0x75, 0x6C, 0x50, 0x61, 0x72, 0x74, 
    0x69, 0x74, 0x69, 0x6F, 0x6E, 0x65, 0x64, 0x43, 0x61, 0x6C, 0x6C, 0x5F, 
    0x31, 0x3A, 0x30, 0x00, 0x02, 0x00, 0x00, 0x00, 0x01, 0x00, 0x00, 0x00, 
    0x01, 0x00, 0x00, 0x00, 0x1A, 0xFD, 0xFF, 0xFF, 0x00, 0x00, 0x00, 0x01, 
    0x14, 0x00, 0x00, 0x00, 0x1C, 0x00, 0x00, 0x00, 0x1C, 0x00, 0x00, 0x00, 
    0x09, 0x00, 0x00, 0x00, 0x74, 0x00, 0x00, 0x00, 0x02, 0x00, 0x00, 0x00, 
    0xFF, 0xFF, 0xFF, 0xFF, 0x10, 0x00, 0x00, 0x00, 0x04, 0xFD, 0xFF, 0xFF, 
    0x58, 0x00, 0x00, 0x00, 0x73, 0x65, 0x71, 0x75, 0x65, 0x6E, 0x74, 0x69, 
    0x61, 0x6C, 0x5F, 0x31, 0x2F, 0x64, 0x65, 0x6E, 0x73, 0x65, 0x5F, 0x31, 
    0x5F, 0x32, 0x2F, 0x4D, 0x61, 0x74, 0x4D, 0x75, 0x6C, 0x3B, 0x73, 0x65, 
    0x71, 0x75, 0x65, 0x6E, 0x74, 0x69, 0x61, 0x6C, 0x5F, 0x31, 0x2F, 0x64, 
    0x65, 0x6E, 0x73, 0x65, 0x5F, 0x31, 0x5F, 0x32, 0x2F, 0x52, 0x65, 0x6C, 
    0x75, 0x3B, 0x73, 0x65, 0x71, 0x75, 0x65, 0x6E, 0x74, 0x69, 0x61, 0x6C, 
    0x5F, 0x31, 0x2F, 0x64, 0x65, 0x6E, 0x73, 0x65, 0x5F, 0x31, 0x5F, 0x32, 
    0x2F, 0x42, 0x69, 0x61, 0x73, 0x41, 0x64, 0x64, 0x00, 0x00, 0x00, 0x00, 
    0x02, 0x00, 0x00, 0x00, 0x01, 0x00, 0x00, 0x00, 0x10, 0x00, 0x00, 0x00, 
    0xB2, 0xFD, 0xFF, 0xFF, 0x00, 0x00, 0x00, 0x01, 0x14, 0x00, 0x00, 0x00, 
    0x1C, 0x00, 0x00, 0x00, 0x1C, 0x00, 0x00, 0x00, 0x08, 0x00, 0x00, 0x00, 
    0x6C, 0x00, 0x00, 0x00, 0x02, 0x00, 0x00, 0x00, 0xFF, 0xFF, 0xFF, 0xFF, 
    0x20, 0x00, 0x00, 0x00, 0x9C, 0xFD, 0xFF, 0xFF, 0x52, 0x00, 0x00, 0x00, 
    0x73, 0x65, 0x71, 0x75, 0x65, 0x6E, 0x74, 0x69, 0x61, 0x6C, 0x5F, 0x31, 
    0x2F, 0x64, 0x65, 0x6E, 0x73, 0x65, 0x5F, 0x31, 0x2F, 0x4D, 0x61, 0x74, 
    0x4D, 0x75, 0x6C, 0x3B, 0x73, 0x65, 0x71, 0x75, 0x65, 0x6E, 0x74, 0x69, 
    0x61, 0x6C, 0x5F, 0x31, 0x2F, 0x64, 0x65, 0x6E, 0x73, 0x65, 0x5F, 0x31, 
    0x2F, 0x52, 0x65, 0x6C, 0x75, 0x3B, 0x73, 0x65, 0x71, 0x75, 0x65, 0x6E, 
    0x74, 0x69, 0x61, 0x6C, 0x5F, 0x31, 0x2F, 0x64, 0x65, 0x6E, 0x73, 0x65, 
    0x5F, 0x31, 0x2F, 0x42, 0x69, 0x61, 0x73, 0x41, 0x64, 0x64, 0x00, 0x00, 
    0x02, 0x00, 0x00, 0x00, 0x01, 0x00, 0x00, 0x00, 0x20, 0x00, 0x00, 0x00, 
    0x96, 0xFE, 0xFF, 0xFF, 0x00, 0x00, 0x00, 0x01, 0x10, 0x00, 0x00, 0x00, 
    0x10, 0x00, 0x00, 0x00, 0x07, 0x00, 0x00, 0x00, 0x28, 0x00, 0x00, 0x00, 
    0x1C, 0xFE, 0xFF, 0xFF, 0x1B, 0x00, 0x00, 0x00, 0x73, 0x65, 0x71, 0x75, 
    0x65, 0x6E, 0x74, 0x69, 0x61, 0x6C, 0x5F, 0x31, 0x2F, 0x64, 0x65, 0x6E, 
    0x73, 0x65, 0x5F, 0x31, 0x2F, 0x4D, 0x61, 0x74, 0x4D, 0x75, 0x6C, 0x00, 
    0x02, 0x00, 0x00, 0x00, 0x20, 0x00, 0x00, 0x00, 0x02, 0x00, 0x00, 0x00, 
    0xDE, 0xFE, 0xFF, 0xFF, 0x00, 0x00, 0x00, 0x01, 0x10, 0x00, 0x00, 0x00, 
    0x10, 0x00, 0x00, 0x00, 0x06, 0x00, 0x00, 0x00, 0x38, 0x00, 0x00, 0x00, 
    0x64, 0xFE, 0xFF, 0xFF, 0x2B, 0x00, 0x00, 0x00, 0x73, 0x65, 0x71, 0x75, 
    0x65, 0x6E, 0x74, 0x69, 0x61, 0x6C, 0x5F, 0x31, 0x2F, 0x64, 0x65, 0x6E, 
    0x73, 0x65, 0x5F, 0x31, 0x2F, 0x42, 0x69, 0x61, 0x73, 0x41, 0x64, 0x64, 
    0x2F, 0x52, 0x65, 0x61, 0x64, 0x56, 0x61, 0x72, 0x69, 0x61, 0x62, 0x6C, 
    0x65, 0x4F, 0x70, 0x00, 0x01, 0x00, 0x00, 0x00, 0x20, 0x00, 0x00, 0x00, 
    0x32, 0xFF, 0xFF, 0xFF, 0x00, 0x00, 0x00, 0x01, 0x10, 0x00, 0x00, 0x00, 
    0x10, 0x00, 0x00, 0x00, 0x05, 0x00, 0x00, 0x00, 0x3C, 0x00, 0x00, 0x00, 
    0xB8, 0xFE, 0xFF, 0xFF, 0x2D, 0x00, 0x00, 0x00, 0x73, 0x65, 0x71, 0x75, 
    0x65, 0x6E, 0x74, 0x69, 0x61, 0x6C, 0x5F, 0x31, 0x2F, 0x64, 0x65, 0x6E, 
    0x73, 0x65, 0x5F, 0x31, 0x5F, 0x32, 0x2F, 0x42, 0x69, 0x61, 0x73, 0x41, 
    0x64, 0x64, 0x2F, 0x52, 0x65, 0x61, 0x64, 0x56, 0x61, 0x72, 0x69, 0x61, 
    0x62, 0x6C, 0x65, 0x4F, 0x70, 0x00, 0x00, 0x00, 0x01, 0x00, 0x00, 0x00, 
    0x10, 0x00, 0x00, 0x00, 0x8A, 0xFF, 0xFF, 0xFF, 0x00, 0x00, 0x00, 0x01, 
    0x10, 0x00, 0x00, 0x00, 0x10, 0x00, 0x00, 0x00, 0x04, 0x00, 0x00, 0x00, 
    0x1C, 0x00, 0x00, 0x00, 0x10, 0xFF, 0xFF, 0xFF, 0x0F, 0x00, 0x00, 0x00, 
    0x61, 0x72, 0x69, 0x74, 0x68, 0x2E, 0x63, 0x6F, 0x6E, 0x73, 0x74, 0x61, 
    0x6E, 0x74, 0x32, 0x00, 0x01, 0x00, 0x00, 0x00, 0x01, 0x00, 0x00, 0x00, 
    0xC2, 0xFF, 0xFF, 0xFF, 0x00, 0x00, 0x00, 0x01, 0x10, 0x00, 0x00, 0x00, 
    0x10, 0x00, 0x00, 0x00, 0x03, 0x00, 0x00, 0x00, 0x1C, 0x00, 0x00, 0x00, 
    0x48, 0xFF, 0xFF, 0xFF, 0x0F, 0x00, 0x00, 0x00, 0x61, 0x72, 0x69, 0x74, 
    0x68, 0x2E, 0x63, 0x6F, 0x6E, 0x73, 0x74, 0x61, 0x6E, 0x74, 0x31, 0x00, 
    0x02, 0x00, 0x00, 0x00, 0x10, 0x00, 0x00, 0x00, 0x20, 0x00, 0x00, 0x00, 
    0x00, 0x00, 0x16, 0x00, 0x18, 0x00, 0x14, 0x00, 0x00, 0x00, 0x10, 0x00, 
    0x0C, 0x00, 0x08, 0x00, 0x00, 0x00, 0x00, 0x00, 0x00, 0x00, 0x07, 0x00, 
    0x16, 0x00, 0x00, 0x00, 0x00, 0x00, 0x00, 0x01, 0x10, 0x00, 0x00, 0x00, 
    0x10, 0x00, 0x00, 0x00, 0x02, 0x00, 0x00, 0x00, 0x1C, 0x00, 0x00, 0x00, 
    0x9C, 0xFF, 0xFF, 0xFF, 0x0E, 0x00, 0x00, 0x00, 0x61, 0x72, 0x69, 0x74, 
    0x68, 0x2E, 0x63, 0x6F, 0x6E, 0x73, 0x74, 0x61, 0x6E, 0x74, 0x00, 0x00, 
    0x02, 0x00, 0x00, 0x00, 0x01, 0x00, 0x00, 0x00, 0x10, 0x00, 0x00, 0x00, 
    0x00, 0x00, 0x16, 0x00, 0x1C, 0x00, 0x18, 0x00, 0x00, 0x00, 0x14, 0x00, 
    0x10, 0x00, 0x0C, 0x00, 0x00, 0x00, 0x00, 0x00, 0x08, 0x00, 0x07, 0x00, 
    0x16, 0x00, 0x00, 0x00, 0x00, 0x00, 0x00, 0x01, 0x14, 0x00, 0x00, 0x00, 
    0x20, 0x00, 0x00, 0x00, 0x20, 0x00, 0x00, 0x00, 0x01, 0x00, 0x00, 0x00, 
    0x3C, 0x00, 0x00, 0x00, 0x02, 0x00, 0x00, 0x00, 0xFF, 0xFF, 0xFF, 0xFF, 
    0x02, 0x00, 0x00, 0x00, 0x04, 0x00, 0x04, 0x00, 0x04, 0x00, 0x00, 0x00, 
    0x1E, 0x00, 0x00, 0x00, 0x73, 0x65, 0x72, 0x76, 0x69, 0x6E, 0x67, 0x5F, 
    0x64, 0x65, 0x66, 0x61, 0x75, 0x6C, 0x74, 0x5F, 0x6B, 0x65, 0x72, 0x61, 
    0x73, 0x5F, 0x74, 0x65, 0x6E, 0x73, 0x6F, 0x72, 0x3A, 0x30, 0x00, 0x00, 
    0x02, 0x00, 0x00, 0x00, 0x01, 0x00, 0x00, 0x00, 0x02, 0x00, 0x00, 0x00, 
    0x01, 0x00, 0x00, 0x00, 0x10, 0x00, 0x00, 0x00, 0x0C, 0x00, 0x0C, 0x00, 
    0x0B, 0x00, 0x00, 0x00, 0x00, 0x00, 0x04, 0x00, 0x0C, 0x00, 0x00, 0x00, 
    0x09, 0x00, 0x00, 0x00, 0x00, 0x00, 0x00, 0x09, 
};

const unsigned int brightness_model_len = 4448;

#endif // BRIGHTNESS_MODEL_H
